#include <fix16.h>

#include "weights.h"

// THIS FILE HAS BEEN GENERATED BY THE TRAINING.PY SCRIPT, DON'T MODIFY IT!
const fix16_t WEIGHTS[] = {
    0xFFFFDF99,
    0x00002D61,
    0x00008150,
    0xFFFF4945,
    0xFFFF3E75,
    0xFFFE9503,
    0xFFFFC2FD,
    0x000008C9,
    0xFFFF7327,
    0xFFFFCFBE,
    0xFFFFE376,
    0x00002B5F,
    0x00002A83,
    0x000008DF,
    0xFFFE34A0,
    0x00008C69,
    0xFFFFBCBC,
    0x000007F2,
    0xFFFFBAFB,
    0x00002F16,
    0x0000241C,
    0xFFFEF322,
    0x000090AB,
    0x000068D6,
    0x00003B8E,
    0xFFFCDE7A,
    0xFFFFA6FF,
    0x00000735,
    0x00008350,
    0xFFFED556,
    0x00002047,
    0x000049AA,
    0xFFFE7616,
    0xFFFFDFF2,
    0xFFFFE881,
    0x00000D6A,
    0xFFFF4DBC,
    0xFFFFF943,
    0x000022EF,
    0x00002004,
    0xFFFFD628,
    0xFFFFF528,
    0x000020F2,
    0x00003740,
    0xFFFF5B1F,
    0xFFFF7129,
    0xFFFE8533,
    0xFFFE8142,
    0xFFFE6333,
    0xFFFFCD7B,
    0x000025FF,
    0x00001819,
    0x00001ACB,
    0xFFFF2C10,
    0xFFFFB8FA,
    0xFFFFA089,
    0xFFFF7E51,
    0xFFFFEE38,
    0xFFFFFBD2,
    0xFFFF7BFD,
    0xFFFFD11F,
    0xFFFFEBB6,
    0xFFFFEB83,
    0x00000D00,
    0x000038F0,
    0xFFFF96A3,
    0xFFFFC5AD,
    0x00000AC1,
    0x000019EE,
    0xFFFFE015,
    0x00004825,
    0x00012613,
    0xFFFFD53F,
    0x00003C18,
    0x00001DDA,
    0xFFFFED61,
    0xFFFCBCFD,
    0xFFFC6858,
    0xFFFF0E9D,
    0x000041CF,
    0x000068D3,
    0xFFFFC309,
    0x00001AA8,
    0xFFFFECB4,
    0xFFFDCEC0,
    0xFFFFCFB4,
    0x00005FB9,
    0x000009A0,
    0x00001AF2,
    0xFFFFE96B,
    0x000008A5,
    0xFFFEAF00,
    0xFFFFC5BE,
    0x00001BC9,
    0xFFFFD6F2,
    0x00003B7A,
    0xFFFFD9ED,
    0x000021B8,
    0xFFFF8648,
    0x0000247A,
    0x0000102E,
    0xFFFFEE1A,
    0x000001F2,
    0x00003FFA,
    0xFFFF079F,
    0xFFFF79D8,
    0x00002461,
    0x000034D8,
    0x0000A29C,
    0xFFFFBBE0,
    0xFFFE1935,
    0xFFFFD90C,
    0xFFFFD0F3,
    0xFFFFEFB8,
    0xFFFE4C71,
    0x00008BAC,
    0xFFFF765E,
    0xFFFC7C4E,
    0xFFFFE5B0,
    0xFFFFFD49,
    0xFFFED78C,
    0x00002CFC,
    0x0000D6BE,
    0x0000A87B,
    0xFFFE1795,
    0x00004385,
    0xFFFFBCA2,
    0xFFFF28C1,
    0x00003395,
    0x0000143C,
    0xFFFEF57C,
    0xFFFFFA76,
    0x00004BF9,
    0xFFFE010F,
    0xFFFFA5AF,
    0x0000B140,
    0x00007492,
    0xFFFFFC81,
    0xFFFFE8EA,
    0xFFFFCA66,
    0xFFFFCDE7,
    0xFFFF2944,
    0x00006E30,
    0x00001D82,
    0xFFFEF80C,
    0xFFFDB8C3,
    0xFFFEB236,
    0xFFFF77A4,
    0x000040D9,
    0xFFFFDD61,
    0xFFFFD526,
    0x0000348A,
    0xFFFEBBEF,
    0xFFFFDCED,
    0xFFFF6356,
    0xFFFE88A0,
    0xFFFFFDBA,
    0xFFFFEB75,
    0xFFFFE5B1,
    0x00005A3D,
    0x000061CA,
    0xFFFDD6C8,
    0x0000069A,
    0x0000493D,
    0x0000F3B7,
    0xFFFF8A9E,
    0xFFFFEBEA,
    0xFFFFFE28,
    0xFFFECFC1,
    0x00001F5D,
    0xFFFFD6EE,
    0xFFFFC9D7,
    0xFFFECA00,
    0x00003D5D,
    0x000064CD,
    0x00000836,
    0x00003A6B,
    0x0000619F,
    0x00008320,
    0xFFFF3E66,
    0xFFFFE7CC,
    0x0000054E,
    0x00002A0F,
    0x0000088B,
    0xFFFFC3E0,
    0x0000270F,
    0xFFFFEAF8,
    0xFFFEFB80,
    0xFFFFA295,
    0xFFFFEAF1,
    0xFFFFF911,
    0x000007D3,
    0xFFFFA356,
    0x0000074A,
    0xFFFE577A,
    0xFFFF2E7F,
    0xFFFF7D19,
    0xFFFF7B1A,
    0xFFFE958E,
    0x000003C4,
    0xFFFFEA3D,
    0xFFFFCE65,
    0xFFFFDE0A,
    0x000025F9,
    0x00003B3B,
    0x00008F81,
    0x00001B54,
    0xFFFFC70C,
    0x00009687,
    0x0000178B,
    0x0000122B,
    0x00001330,
    0x00000F7A,
    0x00003A18,
    0x0001149B,
    0xFFFF8C88,
    0x000006BD,
    0x000003AD,
    0x00001449,
    0xFFFFE82C,
    0xFFFFE213,
    0x0000E171,
    0xFFFFBA7C,
    0x000011EC,
    0x00001C15,
    0x0000219B,
    0xFFFFEC61,
    0xFFFFA8E2,
    0xFFFEDFB7,
    0x000056CE,
    0xFFFE4EC0,
    0xFFFD92ED,
    0xFFFF8BBE,
    0x0000074B,
    0x00004787,
    0xFFFE86DD,
    0x00009DE2,
    0x0000B7FA,
    0x00004BD4,
    0x00001216,
    0xFFFFF85E,
    0xFFFFE48B,
    0xFFFF253A,
    0x0000C2D7,
    0x0000941B,
    0x0000452A,
    0x00002193,
    0x000021CB,
    0xFFFF8E76,
    0x00003E1A,
    0x00000066,
    0x0000134C,
    0x00002274,
    0xFFFF16DC,
    0xFFFF3F9E,
    0xFFFF955B,
    0xFFFFE748,
    0x000020FD,
    0x000050D7,
    0xFFFF8681,
    0xFFFFA37A,
    0xFFFFD3D7,
    0xFFFFCEA7,
    0xFFFFFC4A,
    0xFFFDF68D,
    0x00006488,
    0xFFFFA21F,
    0xFFFE54F9,
    0xFFFFFC7A,
    0xFFFFF794,
    0xFFFF02BA,
    0xFFFFC044,
    0x0000D8AD,
    0x000042D5,
    0xFFFCEFAA,
    0x000053BF,
    0xFFFF6895,
    0x0000A53C,
    0xFFFFC35A,
    0x000084BB,
    0xFFFE7F9E,
    0xFFFFDC64,
    0x00004AFF,
    0xFFFFBF89,
    0xFFFFB58F,
    0xFFFF7062,
    0x000055D7,
    0xFFFF9350,
    0xFFFFFF7A,
    0xFFFFBEAD,
    0xFFFFFDE5,
    0xFFFE0DBC,
    0x00002F07,
    0x00001AB9,
    0xFFFEFA44,
    0xFFFDCE9C,
    0xFFFF2198,
    0xFFFF00A1,
    0xFFFFB47B,
    0x00002B38,
    0xFFFFBE1B,
    0x000027EF,
    0x00003117,
    0xFFFF37A5,
    0xFFFE44AD,
    0xFFFF5406,
    0xFFFF7847,
    0xFFFFF929,
    0x000030AC,
    0x00000900,
    0x00000541,
    0x0000364E,
    0x00001C7F,
    0x0000054B,
    0x0000188C,
    0xFFFFD8DB,
    0xFFFFF193,
    0x000023E3,
    0xFFFFE651,
    0x00003AEC,
    0x000074D9,
    0x000160A4,
    0x0000105D,
    0xFFFF1865,
    0x00001344,
    0x00004685,
    0xFFFFC8A0,
    0xFFFC3532,
    0xFFFF0D30,
    0x000105E9,
    0x00003563,
    0xFFFFB0CD,
    0xFFFFC621,
    0x0000408D,
    0xFFFED486,
    0xFFFEE20A,
    0x0000F1CE,
    0x00000C00,
    0xFFFFE96D,
    0x00000CBD,
    0xFFFFEB6C,
    0xFFFDEF98,
    0xFFFE911F,
    0xFFFFFB89,
    0x00000C87,
    0x0000420C,
    0x00002766,
    0x00001DDA,
    0x0000ED9C,
    0x0000297E,
    0xFFFFEC9E,
    0xFFFFD5EE,
    0x0000427F,
    0xFFFF4BF9,
    0xFFFF722F,
    0xFFFF92C1,
    0xFFFF9BA0,
    0x000000D9,
    0x0000F903,
    0x0000338E,
    0x00004013,
    0xFFFFEA75,
    0xFFFFDF0F,
    0xFFFFF872,
    0xFFFE7996,
    0x0000A21C,
    0x0000854B,
    0x00000FC1,
    0xFFFFF661,
    0x00003175,
    0x0000165A,
    0xFFFF39E0,
    0x00015ED8,
    0xFFFEAA02,
    0xFFFE2BEB,
    0xFFFF5B88,
    0x00000396,
    0x000016AC,
    0x000061F9,
    0xFFFFC24A,
    0x0000079C,
    0xFFFFF3C5,
    0x0000561D,
    0x00001AAD,
    0xFFFFDCC3,
    0x00006A4A,
    0x00004F78,
    0x00002EC5,
    0x00000E0F,
    0xFFFFF384,
    0xFFFFC95B,
    0xFFFFE32F,
    0x0001486B,
    0xFFFF3C43,
    0x000062EF,
    0x00002D71,
    0x00006859,
    0x00002123,
    0xFFFEAE2B,
    0x000040A4,
    0xFFFFC7CF,
    0xFFFFFC6D,
    0x0000B0B1,
    0x00007199,
    0x0000AD89,
    0x0000D095,
    0xFFFFC757,
    0x00000629,
    0xFFFFEA68,
    0x00002D6F,
    0x00002F09,
    0x00002671,
    0x000024B6,
    0xFFFFEC49,
    0xFFFF60F5,
    0xFFFF7622,
    0xFFFD5F9B,
    0xFFFCF4C0,
    0xFFFF1DF6,
    0xFFFFF6CA,
    0x000004AE,
    0xFFFFFDE2,
    0xFFFFCA48,
    0x00003AB9,
    0x00002FA7,
    0x00001A26,
    0x00000AA4,
    0xFFFFF53F,
    0x00005A3C,
    0x0000D67F,
    0x00004890,
    0x00000D47,
    0x00000FE0,
    0x000032BC,
    0x0000074F,
    0x0001007B,
    0x000161FA,
    0x0000238D,
    0x00000704,
    0x00001092,
    0x00001BB6,
    0x00002999,
    0x000112C4,
    0xFFFFE76C,
    0xFFFFF3C2,
    0xFFFEA6E6,
    0xFFFE7962,
    0xFFFEDE8D,
    0x000091A5,
    0xFFFF669F,
    0xFFFFD0EF,
    0x00001091,
    0xFFFF96A1,
    0xFFFE8BAF,
    0xFFFF4701,
    0xFFFE22BD,
    0xFFFF56C9,
    0xFFFFC7D9,
    0x00004890,
    0xFFFFE9E5,
    0xFFFFDB06,
    0x00001059,
    0xFFFFF96B,
    0xFFFFE710,
    0xFFFD622D,
    0x000181B1,
    0x0000372A,
    0x00002B37,
    0x0000294F,
    0x00003902,
    0x00003768,
    0xFFFD8F0D,
    0x0000F4CD,
    0x00001BE7,
    0x00003514,
    0xFFFCEE60,
    0xFFFFEA76,
    0xFFFFF7F4,
    0x00009C44,
    0xFFFF8FC6,
    0x00000ADF,
    0xFFFFEE7B,
    0xFFFF4F4C,
    0x0000036E,
    0x00002911,
    0xFFFF72F5,
    0xFFFEA715,
    0x000009EB,
    0x00001835,
    0x0000258F,
    0xFFFFEDA1,
    0xFFFFBA02,
    0xFFFFF5D4,
    0xFFFFF927,
    0xFFFFF630,
    0x0000810D,
    0x0000224A,
    0x00002C70,
    0xFFFFA65F,
    0x00000147,
    0xFFFFF3BA,
    0xFFFFDB9A,
    0x0000EAB6,
    0x00019B86,
    0x00014190,
    0x00007F51,
    0xFFFFC518,
    0xFFFFCE23,
    0xFFFFF1A1,
    0xFFFFDE3E,
    0x00007A71,
    0xFFFFA76A,
    0xFFFFC34C,
    0x00005821,
    0x00004E67,
    0xFFFF91E6,
    0xFFFFDF69,
    0x000063D3,
    0xFFFF0FC5,
    0xFFFFD7FA,
    0x000001CE,
    0xFFFFC679,
    0x00004867,
    0x00000E1F,
    0x000031F1,
    0xFFFFE014,
    0xFFFFFA5E,
    0x00003C63,
    0x00005C40,
    0xFFFF4F59,
    0xFFFFCE2C,
    0x00000B28,
    0x0000086D,
    0xFFFFDBF6,
    0x00003D96,
    0x0000BBF0,
    0xFFFFD0A7,
    0xFFFF990F,
    0xFFFFF9C0,
    0x000023D1,
    0x00001715,
    0x000016A4,
    0xFFFEF308,
    0x00003A33,
    0xFFFEFBBB,
    0xFFFF7700,
    0xFFFF9CA4,
    0xFFFF822F,
    0xFFFE9E26,
    0xFFFFD6E3,
    0x000016EF,
    0xFFFFFCDE,
    0xFFFF7E26,
    0xFFFE4C7D,
    0xFFFD9C78,
    0xFFFE55AA,
    0xFFFF84C9,
    0xFFFFCCD8,
    0x000016A7,
    0xFFFFF549,
    0xFFFFD7F5,
    0xFFFFCC5D,
    0xFFFFC1F1,
    0xFFFDF681,
    0xFFFD96D3,
    0x000096BA,
    0x000010E2,
    0x00004375,
    0x0000173C,
    0x00002633,
    0xFFFFEADC,
    0xFFFD3F78,
    0x0000EEC3,
    0x00001BD9,
    0xFFFFA84F,
    0xFFFFA3C0,
    0x00003E14,
    0xFFFFFC46,
    0xFFFFF249,
    0x000041D2,
    0xFFFFB3D5,
    0xFFFFFD9E,
    0x00001E36,
    0x00001145,
    0xFFFFB4D6,
    0xFFFE9539,
    0xFFFF4EF5,
    0xFFFF6F48,
    0xFFFFA247,
    0x000003CB,
    0xFFFFB8D4,
    0xFFFFB786,
    0xFFFFBEA8,
    0xFFFFB33C,
    0x0000E915,
    0x0000BAC7,
    0x000048AD,
    0x000092E2,
    0x0000BA15,
    0xFFFFD284,
    0xFFFFF773,
    0x0000413A,
    0x0000D5AF,
    0x000069B3,
    0x000054DE,
    0x00004189,
    0xFFFED043,
    0x0000D118,
    0xFFFFD159,
    0xFFFFE29E,
    0x000005C5,
    0x000007A2,
    0xFFFFFFE1,
    0xFFFFEE7B,
    0xFFFE360A,
    0xFFFFF4CF,
    0x00002657,
    0xFFFFFCF5,
    0xFFFFC984,
    0x00001EBE,
    0xFFFFEF0A,
    0xFFFE473C,
    0x00007D1F,
    0xFFFCA6C2,
    0xFFFF6D5C,
    0xFFFF8EAD,
    0xFFFFDA02,
    0xFFFFABA0,
    0x0000F0EA,
    0xFFFF8459,
    0x00005C4D,
    0x000037EC,
    0x00003F62,
    0x00001EAC,
    0x000038C8,
    0x0001FE69,
    0x00000469,
    0x00003C35,
    0x000021F6,
    0xFFFFF02A,
    0x00000ECB,
    0x000066D6,
    0x0000F59E,
    0xFFFF285A,
    0x0000707C,
    0x0000570D,
    0x0000460D,
    0xFFFDF752,
    0xFFFF821C,
    0x00001759,
    0xFFFFF575,
    0x00001E1F,
    0x00003A50,
    0xFFFFF72E,
    0xFFFFA1E9,
    0x0001C27D,
    0x00020EEA,
    0x00009D75,
    0x00008350,
    0xFFFF9B37,
    0xFFFF5C8F,
    0xFFFF9F38,
    0xFFFFD0DC,
    0x00000823,
    0x000084A9,
    0x00003BC9,
    0xFFFF644C,
    0x0000058E,
    0x000041FF,
    0xFFFFF0C2,
    0x000009DA,
    0x00014D60,
    0x000046F1,
    0xFFFFA2BF,
    0x00002842,
    0xFFFFFFF7,
    0xFFFF5A10,
    0xFFFDF89E,
    0xFFFEC6D3,
    0xFFFEF59D,
    0x00006651,
    0x0000015D,
    0xFFFFE7B2,
    0x000038DF,
    0xFFFEDBDD,
    0xFFFE40A9,
    0xFFFF2C09,
    0x0000015D,
    0x0000272B,
    0x000011CB,
    0xFFFFFED5,
    0xFFFE0DD8,
    0xFFFF8DFA,
    0xFFFFC018,
    0xFFFF3BE4,
    0x00002594,
    0xFFFFE3D6,
    0xFFFF2498,
    0xFFFEEAF9,
    0x000003E4,
    0xFFFFDC38,
    0x00000060,
    0xFFFEC0FC,
    0xFFFD00FF,
    0xFFFC9AA2,
    0xFFFEDDAC,
    0xFFFFC737,
    0x00000A60,
    0xFFFFFAC7,
    0x000066A3,
    0x000001B2,
    0xFFFD2C27,
    0x0000465F,
    0x00006397,
    0x00007AC6,
    0xFFFF3A3E,
    0xFFFFE787,
    0x00002CA7,
    0xFFFCBE8C,
    0x00002113,
    0x00000B7A,
    0xFFFF0533,
    0xFFFFF20D,
    0x0000212A,
    0x00003E1E,
    0xFFFFEA38,
    0x00004346,
    0xFFFFEB54,
    0x00003E45,
    0xFFFF9624,
    0x00001F1D,
    0xFFFFF1E6,
    0x00000B3E,
    0x00000D38,
    0xFFFFB2CC,
    0xFFFFD444,
    0xFFFFC1AE,
    0xFFFF4766,
    0xFFFF9A19,
    0xFFFFDF18,
    0xFFFFFA9E,
    0x00007456,
    0x00005C69,
    0xFFFFDC07,
    0xFFFF0243,
    0xFFFF723F,
    0xFFFFB3EB,
    0xFFFF9973,
    0xFFFF8E4A,
    0xFFFFE718,
    0x0000108E,
    0xFFFFCFF8,
    0xFFFE5721,
    0xFFFC730C,
    0xFFFAAACF,
    0xFFFD612C,
    0xFFFDF2CC,
    0xFFFF3311,
    0xFFFEFB32,
    0x00001F2F,
    0xFFFFCB1E,
    0xFFFFB2A7,
    0xFFFFDAB3,
    0x00006D17,
    0x00008707,
    0xFFFEC3FE,
    0xFFFF9E23,
    0xFFFFBE68,
    0xFFFFBF42,
    0xFFFFFA46,
    0xFFFFFF41,
    0xFFFF5E4E,
    0xFFFEA401,
    0x00005149,
    0x0000674E,
    0xFFFFED7C,
    0x00002F0D,
    0x00001203,
    0xFFFFFFB6,
    0xFFFFA40A,
    0x000002D6,
    0xFFFFFD38,
    0x00002954,
    0x000011A0,
    0xFFFFF85D,
    0xFFFF9C25,
    0xFFFF7F8B,
    0xFFFC5F93,
    0xFFFF8AD8,
    0xFFFFD487,
    0xFFFFFCB8,
    0xFFFFFD00,
    0xFFFF7A93,
    0xFFFFE098,
    0xFFFF95EF,
    0xFFFF1758,
    0xFFFF6716,
    0xFFFF1401,
    0xFFFED31B,
    0xFFFFAA44,
    0x0000032B,
    0xFFFFB061,
    0xFFFFAAA4,
    0xFFFF6672,
    0xFFFF6FC4,
    0xFFFFE23A,
    0x000082CF,
    0xFFFFEC9C,
    0xFFFF8EE2,
    0xFFFFE437,
    0xFFFF5558,
    0xFFFFDA2D,
    0xFFFFD098,
    0x00001477,
    0x00004568,
    0xFFFE8FA8,
    0xFFFFA41E,
    0xFFFFE147,
    0xFFFFDB51,
    0xFFFFE09A,
    0xFFFFC1AC,
    0xFFFFAE2F,
    0xFFFE55C4,
    0x00008A2C,
    0x000068D7,
    0x000027D6,
    0x00006488,
    0x00001A69,
    0xFFFEF9A6,
    0xFFFE7FA8,
    0xFFFFC206,
    0x00002967,
    0x00002AC0,
    0x00000F70,
    0xFFFF9A69,
    0xFFFE7D21,
    0xFFFF6C00,
    0xFFFE8420,
    0xFFFF9253,
    0xFFFFB366,
    0xFFFFD5AD,
    0x00000702,
    0xFFFF9AA1,
    0x0000966C,
    0x00003091,
    0xFFFFFE1A,
    0xFFFFCDA7,
    0x00001F25,
    0x0000C1D0,
    0xFFFF8AB7,
    0x0000201A,
    0xFFFFD907,
    0xFFFF5020,
    0xFFFE2ABB,
    0xFFFD647F,
    0xFFFDF158,
    0xFFFF2ECA,
    0x0000363C,
    0xFFFFAB9F,
    0x00003906,
    0xFFFFFA21,
    0xFFFFE36D,
    0xFFFFB792,
    0xFFFFF6C7,
    0xFFFF8B2E,
    0x000138B1,
    0x000009E3,
    0x0000051D,
    0xFFFFF032,
    0x000019A6,
    0x000007E5,
    0xFFFEFB90,
    0x000166F2,
    0x0000791C,
    0x0000333F,
    0x000000C2,
    0x0000786C,
    0x00004BE3,
    0x00000C19,
    0xFFFFC3C1,
    0xFFFE7667,
    0xFFFF4B74,
    0xFFFFF89B,
    0xFFFFD1E3,
    0xFFFF66F9,
    0xFFFFDD6A,
    0xFFFF1333,
    0xFFFECD28,
    0xFFFFCC6C,
    0xFFFFEDA0,
    0xFFFE8CC6,
    0xFFFF55F3,
    0x0000446E,
    0xFFFFD2E0,
    0x000096C6,
    0x00000276,
    0x00003B7B,
    0xFFFF4C6B,
    0x00000419,
    0x00003002,
    0xFFFFF332,
    0x00001164,
    0x000007E4,
    0xFFFFE8C4,
    0x00002F42,
    0xFFFFE71C,
    0xFFFFA26E,
    0x000022D8,
    0x00003BC4,
    0x00000DEF,
    0x000000B6,
    0x000018FE,
    0x000035EA,
    0xFFFFE25A,
    0xFFFE9B0A,
    0x0000719D,
    0xFFFFEF5E,
    0xFFFFEC01,
    0xFFFFD420,
    0x00004DEA,
    0x000011BB,
    0xFFFF33F1,
    0x00003769,
    0xFFFFA248,
    0xFFFFC90B,
    0xFFFF3DFE,
    0xFFFFE008,
    0x0000209B,
    0xFFFFF6C9,
    0x00007090,
    0x00006F36,
    0x0000311F,
    0xFFFFD56E,
    0x00002330,
    0xFFFFEF1E,
    0x00008200,
    0x000162F2,
    0x000038C7,
    0x00003A26,
    0x00001DA6,
    0x000009D3,
    0x00007321,
    0x000143C9,
    0xFFFFE8E4,
    0xFFFDF6F5,
    0xFFFDD286,
    0xFFFCA487,
    0xFFFDE3A9,
    0xFFFE360D,
    0xFFFFB8E2,
    0xFFFFE8C8,
    0xFFFFC912,
    0x000099B8,
    0x000032DD,
    0x00004E49,
    0x00003CB7,
    0xFFFF3B49,
    0x00004FCA,
    0x00004BFE,
    0x00008DC8,
    0x00005A90,
    0x00002F0F,
    0x00000DA8,
    0xFFFFE31C,
    0xFFFF9447,
    0xFFFF3611,
    0xFFFEE79C,
    0xFFFF61AC,
    0xFFFFBE22,
    0x000000EF,
    0xFFFFBDD2,
    0xFFFEECA0,
    0x0000093D,
    0xFFFEEAC4,
    0xFFFFBAC6,
    0xFFFFD809,
    0x000003D2,
    0xFFFF9681,
    0x0000530C,
    0x00002407,
    0x0000C1A0,
    0x00001228,
    0x00000D24,
    0x00002BFF,
    0x000040F7,
    0x00012436,
    0x00011DFF,
    0x00003A84,
    0x00001CCE,
    0xFFFFFC39,
    0x00000EA3,
    0x000050A2,
    0x0001C882,
    0x0000339E,
    0xFFFEAC13,
    0xFFFDBC34,
    0xFFFE50A7,
    0x00009B00,
    0x00005424,
    0xFFFF918A,
    0xFFFFF69B,
    0x000037C0,
    0x00017AC2,
    0xFFFFDF7D,
    0x000069A6,
    0x00017400,
    0x0002522A,
    0x0000958A,
    0x000095DE,
    0xFFFF8FF1,
    0xFFFF7429,
    0xFFFFDABC,
    0x00000CAB,
    0xFFFFE478,
    0xFFFE80A1,
    0xFFFFFB97,
    0xFFFDE0CC,
    0xFFFFAF95,
    0x0000034F,
    0xFFFDF223,
    0xFFFCE987,
    0xFFFE9198,
    0xFFFFFED5,
    0xFFFF477B,
    0x00001EB4,
    0xFFFFF72C,
    0x00002037,
    0x000071C0,
    0xFFFE0AC0,
    0x0000218E,
    0xFFFFB5C9,
    0x00005251,
    0xFFFFF6BB,
    0x00002CE2,
    0x00004542,
    0xFFFDA86C,
    0x00006331,
    0xFFFF42C2,
    0xFFFFCDFE,
    0x000029F0,
    0x000009BF,
    0xFFFFACDD,
    0xFFFF61F7,
    0x00001BC7,
    0xFFFFD522,
    0xFFFE20E1,
    0xFFFD69FD,
    0xFFFEB240,
    0xFFFF900C,
    0xFFFFCCB5,
    0xFFFFE351,
    0x000076A7,
    0x00012752,
    0x00028567,
    0x00012779,
    0x0001F0B7,
    0x00017F05,
    0x0001573F,
    0x00003B67,
    0xFFFFFEC5,
    0x00001BD3,
    0xFFFFF21C,
    0xFFFFEB2A,
    0xFFFF9067,
    0xFFFE083E,
    0xFFFFD44A,
    0xFFFFC99E,
    0xFFFFC101,
    0xFFFFB4D6,
    0xFFFFA4A2,
    0xFFFFA0BD,
    0xFFFF024D,
    0xFFFFB12B,
    0xFFFFBEE0,
    0xFFFFFF27,
    0x00001D52,
    0x0000292A,
    0x00001398,
    0x0000844D,
    0xFFFEC01E,
    0x000036D3,
    0x00003480,
    0x000036BF,
    0x00007080,
    0x00007584,
    0x000186CF,
    0xFFFF888A,
    0x00000DBB,
    0x00000A98,
    0xFFFFC9AF,
    0xFFFF2FCD,
    0xFFFFDA7B,
    0x0000128D,
    0xFFFF7289,
    0xFFFE438B,
    0xFFFCD1B3,
    0xFFFCDE1E,
    0xFFFD06A2,
    0xFFFDEE6E,
    0xFFFFD5D9,
    0xFFFFF7A2,
    0x000034A1,
    0x00002996,
    0xFFFFB199,
    0xFFFF4607,
    0xFFFFA817,
    0xFFFFE9D1,
    0x00001E47,
    0x0000B20B,
    0x000016B7,
    0x0000012B,
    0xFFFFADE6,
    0xFFFFA025,
    0xFFFFE902,
    0xFFFDCE9C,
    0x00012181,
    0x000032A4,
    0x000027D6,
    0x0000426E,
    0x00004599,
    0x00003F53,
    0xFFFE9C23,
    0x00015469,
    0x00000912,
    0xFFFFB94C,
    0xFFFE45A0,
    0x00002328,
    0xFFFFDB0C,
    0x00002584,
    0x0001436D,
    0xFFFFD48D,
    0xFFFD44AA,
    0x000008D0,
    0x00000FAA,
    0xFFFF9B9C,
    0xFFFF4156,
    0xFFFF4207,
    0xFFFF726C,
    0x0000014E,
    0xFFFFF4C7,
    0xFFFFC90C,
    0xFFFEECAD,
    0xFFFFD29D,
    0xFFFFD0FA,
    0x0000086F,
    0x000026C2,
    0xFFFFED4F,
    0x00001921,
    0x0000047A,
    0x00008021,
    0x00001DC3,
    0xFFFFD4B2,
    0x00003742,
    0xFFFEFD56,
    0xFFFF14EF,
    0xFFFE6E86,
    0xFFFF941A,
    0x0000002F,
    0xFFFF496B,
    0xFFFF7438,
    0xFFFE9B07,
    0xFFFFE067,
    0xFFFFDE70,
    0xFFFD39DB,
    0xFFFDBBA1,
    0x0000F6EC,
    0xFFFFCFA5,
    0x000024BE,
    0x00001355,
    0xFFFFF575,
    0xFFFF8E4F,
    0xFFFFB6FB,
    0x0000262D,
    0x000034AB,
    0xFFFFEA33,
    0x000021BD,
    0x00001574,
    0xFFFF345B,
    0xFFFED6B7,
    0x0000AEA6,
    0xFFFF7863,
    0xFFFFEC08,
    0x00002E71,
    0xFFFFE276,
    0xFFFE98BD,
    0xFFFEED2B,
    0xFFFF6FD0,
    0xFFFDCB9A,
    0xFFFFEF30,
    0xFFFFE705,
    0xFFFFD3B2,
    0xFFFEB642,
    0xFFFF5B7B,
    0x00001663,
    0x0000A466,
    0x0000530A,
    0x000033E4,
    0x0000933F,
    0x0000B1DC,
    0x00001E9A,
    0xFFFFF8AD,
    0x00006E22,
    0x0000F6B9,
    0x00002C2A,
    0x00005703,
    0x0000F75E,
    0x0001DCA9,
    0xFFFFDEFE,
    0x00005465,
    0xFFFFD57B,
    0xFFFFFDAA,
    0x00000D1E,
    0x000034ED,
    0x0000988D,
    0x0002F6D9,
    0xFFFF3E39,
    0xFFFFD8D7,
    0xFFFFF9E0,
    0xFFFFC541,
    0xFFFDD095,
    0xFFFA8E1A,
    0xFFFEAB9B,
    0xFFFF8A03,
    0xFFFFFA4F,
    0x000004D7,
    0xFFFFF89F,
    0x0000143D,
    0x00000824,
    0xFFFFE9AB,
    0xFFFF01C9,
    0x00000C2A,
    0x00000DF0,
    0xFFFFF630,
    0x000013E2,
    0x000017B0,
    0x00001966,
    0xFFFFB5EE,
    0x00000164,
    0xFFFFED24,
    0x000018F9,
    0x00000AB9,
    0x00001784,
    0x00001306,
    0x0000055D,
    0x00001F1F,
    0x00002D49,
    0x00000D22,
    0x00000C74,
    0x00009D9F,
    0x000039A5,
    0xFFFFBC77,
    0xFFFFD0CE,
    0x0000228E,
    0x00008D44,
    0xFFFF0471,
    0xFFFF9D38,
    0x000009EA,
    0x0000097F,
    0xFFFF7E78,
    0x000043DE,
    0x000029A0,
    0x00001E07,
    0x00000F25,
    0x000002F0,
    0xFFFEE21C,
    0x000058CE,
    0x00000F00,
    0xFFFF8D45,
    0x000029E5,
    0x000020C8,
    0xFFFFCE31,
    0xFFFF63E4,
    0x00002C73,
    0xFFFEFD6E,
    0xFFFFB1FE,
    0x000047D4,
    0x0000569B,
    0xFFFFDCC6,
    0xFFFF4533,
    0x00024898,
    0x00000F57,
    0xFFFF3FF5,
    0xFFFEEC3E,
    0x00000BC9,
    0x00006077,
    0xFFFDCFA3,
    0x0000F39B,
    0x00003EFA,
    0x00001166,
    0x000012EC,
    0x00001BF9,
    0xFFFF9384,
    0xFFFE4DB6,
    0x00011007,
    0x00015C20,
    0x0000AAC7,
    0x00000503,
    0xFFFF8449,
    0xFFFFC010,
    0x00000972,
    0x000012FE,
    0xFFFFF23B,
    0xFFFFF826,
    0xFFFFD07E,
    0xFFFFEAC3,
    0xFFFF6D03,
    0xFFFEEFD1,
    0x00002BB6,
    0x0000A4BE,
    0x00004039,
    0x00001445,
    0xFFFFF14D,
    0xFFFFE985,
    0xFFFFDC72,
    0xFFFEBB50,
    0x0000F092,
    0x00004AD2,
    0x00001014,
    0xFFFFF8E4,
    0x00000771,
    0xFFFFDE2D,
    0xFFFFBB76,
    0x00013C3E,
    0xFFFBF636,
    0xFFFD3374,
    0xFFFFC007,
    0xFFFFE830,
    0xFFFFE923,
    0x0000DDAC,
    0x00001032,
    0x000022B3,
    0x00001FF4,
    0x000024CD,
    0x00000101,
    0x00000C82,
    0x000107F7,
    0x00005835,
    0x00002019,
    0x000009D2,
    0x0000062E,
    0x00000F68,
    0x0000308D,
    0x0001D57A,
    0xFFFFA4AC,
    0x00005CFA,
    0x000040F5,
    0x00004A91,
    0x00002C22,
    0xFFFF968A,
    0x0000BD41,
    0xFFFFBC05,
    0xFFFFF04F,
    0x00000E94,
    0xFFFE89F5,
    0xFFFC8DD1,
    0xFFFD7F79,
    0xFFFE76F4,
    0xFFFFD858,
    0xFFFF9D5F,
    0xFFFFA26D,
    0xFFFFB1C4,
    0x00002E80,
    0x00002F58,
    0x00001CD6,
    0x0000E776,
    0xFFFF3282,
    0xFFFF9A87,
    0x00004E62,
    0xFFFFD144,
    0xFFFFCD95,
    0x000049E7,
    0x0000ECDD,
    0xFFFF4589,
    0xFFFFE514,
    0x00000FE5,
    0x000048E1,
    0x00002DE8,
    0xFFFFDB99,
    0x0000206C,
    0xFFFEC5BE,
    0xFFFEF5B8,
    0x0000317C,
    0x000005DA,
    0xFFFFD3D2,
    0xFFFE6CB2,
    0xFFFF2CD0,
    0xFFFEE5C2,
    0xFFFF9CB8,
    0xFFFFE01E,
    0xFFFFF78D,
    0xFFFFFD93,
    0xFFFE9EAF,
    0xFFFECF85,
    0x00007A78,
    0xFFFEF1E8,
    0x00001FC5,
    0x00004E31,
    0x00008A8F,
    0x0000D610,
    0xFFFFD37B,
    0x00003FA7,
    0x000001F9,
    0xFFFF4E76,
    0x00000A74,
    0xFFFF4966,
    0xFFFFF3BE,
    0x00002FA8,
    0x00001224,
    0xFFFFBD4C,
    0xFFFFFEEA,
    0x00000BCA,
    0xFFFFBEF3,
    0xFFFFBF3E,
    0xFFFFD9E5,
    0xFFFE8EAA,
    0x0000D97C,
    0x0000156E,
    0x00001F9E,
    0xFFFFF89B,
    0x00002C77,
    0xFFFFD6B3,
    0xFFFD35A6,
    0x00007F1A,
    0x0000443A,
    0xFFFFF609,
    0xFFFFC1C0,
    0x00005906,
    0x00001446,
    0xFFFFB5CE,
    0xFFFFC4FB,
    0xFFFFB669,
    0xFFFFF293,
    0x000028E3,
    0x00000F11,
    0xFFFFCCDA,
    0xFFFFE419,
    0xFFFEB606,
    0xFFFF7744,
    0xFFFFAED5,
    0xFFFFD7D3,
    0xFFFF8F37,
    0xFFFFA7EB,
    0x00000106,
    0xFFFFA88E,
    0x00013017,
    0x00004234,
    0x00003265,
    0x000054F9,
    0x00000FF1,
    0x00007154,
    0xFFFFC733,
    0xFFFFDA04,
    0x0000055A,
    0x00008FEA,
    0xFFFF880F,
    0xFFFEEA8A,
    0xFFFFEAFD,
    0xFFFFFFAD,
    0x0000F2E6,
    0x000052E3,
    0x00006AFD,
    0x00002112,
    0x000003B9,
    0xFFFF8533,
    0xFFFE955D,
    0x000093F2,
    0xFFFF7335,
    0xFFFEB327,
    0x000005E4,
    0x00002906,
    0xFFFF09C9,
    0xFFFFF24C,
    0x00000AEE,
    0xFFFF9B26,
    0x00001A2F,
    0x000017FC,
    0xFFFFF343,
    0xFFFFF662,
    0xFFFF73AB,
    0x0002701A,
    0x000001AA,
    0xFFFF7B6C,
    0xFFFF6A1B,
    0x000021C1,
    0x000064DC,
    0xFFFE66B0,
    0x0001B8C5,
    0x000048D4,
    0x0000115F,
    0x0000103C,
    0x00001164,
    0xFFFF66F8,
    0xFFFEA7BE,
    0x000054B8,
    0x000155E1,
    0x0000AF63,
    0x00005535,
    0x00000458,
    0xFFFFABB1,
    0xFFFFCF37,
    0xFFFFEFA8,
    0x00002C7B,
    0x0000EFCC,
    0xFFFF8506,
    0x00010D95,
    0x00019E68,
    0x0001E980,
    0x00003049,
    0x0000577A,
    0xFFFF1E9F,
    0xFFFF6B2E,
    0xFFFFF296,
    0xFFFFD097,
    0xFFFFBB2C,
    0xFFFE4D2A,
    0x0000502A,
    0xFFFE4A46,
    0xFFFFD82D,
    0x000023D2,
    0xFFFE0A2F,
    0xFFFE6FD5,
    0xFFFE6F6D,
    0xFFFFE38F,
    0x00003355,
    0x000010E7,
    0x000002E4,
    0xFFFFF577,
    0x00003D0B,
    0xFFFF5B23,
    0x00004831,
    0xFFFFE3B2,
    0x000031EE,
    0x00003852,
    0xFFFFF843,
    0x00002526,
    0xFFFEA15B,
    0x00003DC1,
    0xFFFF4613,
    0xFFFFD246,
    0x0000496C,
    0x0000207B,
    0xFFFFD11C,
    0xFFFF3731,
    0x0000058B,
    0xFFFF7E80,
    0xFFFDF7D6,
    0xFFFE6B5E,
    0xFFFE14F4,
    0xFFFF4983,
    0xFFFFC8DB,
    0xFFFFE519,
    0x00004662,
    0xFFFFEF12,
    0xFFFFC169,
    0x0000282B,
    0x000134FE,
    0x0000C141,
    0xFFFFE422,
    0xFFFFD09C,
    0xFFFFB181,
    0x000013F8,
    0x00000E99,
    0x00005432,
    0x0000A411,
    0x00015655,
    0xFFFF0518,
    0xFFFFF0F6,
    0x0000291A,
    0xFFFF938B,
    0xFFFE4896,
    0xFFFCBC2F,
    0xFFFE92A7,
    0xFFFF2A73,
    0xFFFFF384,
    0x00000B7C,
    0xFFFFE77B,
    0xFFFFFD05,
    0xFFFFD261,
    0xFFFEDA0E,
    0xFFFF38D7,
    0xFFFFE505,
    0xFFFF852E,
    0xFFFF4A9F,
    0x00000A27,
    0x0000071B,
    0x00003DAD,
    0xFFFF878B,
    0x000033EA,
    0x0000167A,
    0x00001E84,
    0x00001B9C,
    0x00003827,
    0xFFFFE09E,
    0xFFFFC2E5,
    0x00008B22,
    0x0000C8C7,
    0x00005CCE,
    0x00004026,
    0x0000AD02,
    0xFFFFC1C8,
    0x00001DB9,
    0xFFFFC79E,
    0xFFFFAD1D,
    0xFFFE57C4,
    0xFFFE0AA3,
    0xFFFD87BB,
    0xFFFF0FC0,
    0xFFFF228C,
    0xFFFF2966,
    0xFFFFC6A9,
    0xFFFFB650,
    0xFFFFCD19,
    0xFFFFA16D,
    0xFFFFED54,
    0x00002148,
    0xFFFF7892,
    0xFFFF9C5D,
    0xFFFFF0DF,
    0x00001196,
    0x000023FC,
    0xFFFFFB32,
    0x00003B23,
    0xFFFE5A0C,
    0x000029F3,
    0x0000395C,
    0xFFFFEDDF,
    0x00000A87,
    0xFFFF8F77,
    0x000020F3,
    0xFFFE9BD9,
    0x00002D77,
    0xFFFFEFD3,
    0xFFFFFF4F,
    0x000013D0,
    0x000000AA,
    0xFFFEE737,
    0xFFFEC720,
    0xFFFFDB93,
    0xFFFFEA6F,
    0xFFFFF07C,
    0xFFFFF0B6,
    0xFFFF1ACB,
    0xFFFF2292,
    0xFFFFD408,
    0xFFFE27E0,
    0xFFFD7AF7,
    0xFFFAF840,
    0xFFFA6AE2,
    0xFFFD33FE,
    0xFFFFF459,
    0x00001206,
    0x00004866,
    0x0000E65D,
    0x0002AE4E,
    0x0000D228,
    0x0001C2E8,
    0x00020522,
    0x0000BEAC,
    0x00007AD6,
    0x00001218,
    0xFFFFD006,
    0xFFFFE8FE,
    0xFFFFEB42,
    0xFFFFE634,
    0xFFFEBB7D,
    0xFFFFABDF,
    0xFFFFD078,
    0xFFFFC42B,
    0xFFFFFB37,
    0xFFFFEDC9,
    0xFFFFE97F,
    0xFFFF2D67,
    0x000015B1,
    0x00001924,
    0x000031E9,
    0xFFFFD598,
    0xFFFFF445,
    0x000023EA,
    0x00009547,
    0xFFFF73D4,
    0x00002992,
    0x0000343D,
    0x00001843,
    0x00004212,
    0x0000599B,
    0x00012CB0,
    0xFFFFEA28,
    0xFFFFFED8,
    0xFFFFF5AC,
    0xFFFFFEE2,
    0xFFFFE27C,
    0xFFFFA046,
    0x0000D541,
    0xFFFF17EC,
    0xFFFDECD6,
    0xFFFCF9F8,
    0xFFFBA0C9,
    0xFFFB501A,
    0xFFFCFF16,
    0xFFFFD93D,
    0x0000075A,
    0xFFFFDE94,
    0x00008F2E,
    0x000058FB,
    0x00007C28,
    0x0000B742,
    0xFFFEE482,
    0x0000D165,
    0xFFFFF404,
    0xFFFFCE51,
    0x00002618,
    0xFFFFE32B,
    0xFFFFC42C,
    0xFFFFB539,
    0xFFFD945B,
    0x000070B9,
    0xFFFEA6D4,
    0xFFFF26EC,
    0xFFFFCBC4,
    0xFFFFE5F6,
    0xFFFE7A93,
    0xFFFEE5A1,
    0x00009557,
    0xFFFF819C,
    0xFFFFB584,
    0x00004EAA,
    0xFFFFAE76,
    0xFFFF0114,
    0x00008C35,
    0xFFFFCD7F,
    0x00004854,
    0x00001B4C,
    0x000050DF,
    0xFFFFCCCC,
    0x00006E2C,
    0x00018A6C,
    0xFFFFB77B,
    0x000067ED,
    0xFFFFFF63,
    0xFFFFD6D0,
    0x000010DF,
    0x000020CD,
    0x00016534,
    0xFFFFF860,
    0xFFFF5BA3,
    0xFFFDE0E3,
    0xFFFD5DD7,
    0xFFFEEA84,
    0xFFFFD831,
    0xFFFF979A,
    0x00001C0D,
    0xFFFFCFFD,
    0xFFFFE7F2,
    0xFFFF950F,
    0xFFFFD296,
    0xFFFFDB25,
    0x00000772,
    0xFFFFD3E0,
    0xFFFFFFBD,
    0x0000572D,
    0x00001DC5,
    0x00000B0E,
    0xFFFFEDAF,
    0xFFFE4AFC,
    0xFFFE3A7F,
    0x00012E3C,
    0x000037D6,
    0xFFFFE15E,
    0x00002788,
    0x00000B74,
    0xFFFFD1B6,
    0xFFFD90DC,
    0x0000AFE6,
    0xFFFFB8A2,
    0xFFFFEA09,
    0x0000179E,
    0x00001CF4,
    0xFFFFDB47,
    0xFFFF3B7A,
    0x0001BACA,
    0xFFFF7F7F,
    0xFFFE5692,
    0xFFFFB3E2,
    0xFFFFFCE0,
    0x00002CB4,
    0xFFFF8E20,
    0x00015968,
    0x00008A52,
    0x00001A7D,
    0x00001CF0,
    0xFFFFEDFE,
    0xFFFF6E94,
    0xFFFF1F09,
    0x0000E74C,
    0x0001231A,
    0x0000E37A,
    0x000065F2,
    0x000053A9,
    0x00007B07,
    0x000088E0,
    0x00000D14,
    0x000020EB,
    0x00003414,
    0xFFFE7D66,
    0xFFFE9978,
    0xFFFED979,
    0xFFFF066A,
    0x00003856,
    0x0000757E,
    0xFFFF96D1,
    0x00000935,
    0xFFFFE62A,
    0xFFFFEC67,
    0x00001408,
    0x0000A546,
    0x000092FE,
    0x000049E0,
    0x0000631D,
    0x0000870D,
    0x000033E8,
    0x000035BE,
    0x0000912B,
    0x000030BB,
    0x00000D22,
    0x00000B1A,
    0xFFFF5BF3,
    0xFFFF73DA,
    0xFFFFE9CF,
    0x00001BDB,
    0xFFFFB626,
    0x00003800,
    0xFFFF7DF8,
    0xFFFF8C05,
    0xFFFFF580,
    0x00001D52,
    0xFFFE4930,
    0xFFFEB187,
    0x000020D2,
    0x00003F80,
    0xFFFFFB78,
    0xFFFFFBB7,
    0xFFFFC9A8,
    0xFFFF4711,
    0xFFFF47F9,
    0x000023F5,
    0x00004AC1,
    0x00001446,
    0x0000024D,
    0xFFFF9950,
    0x00001EC9,
    0xFFFFE948,
    0xFFFFDC88,
    0x00003EC3,
    0x0000620B,
    0x00002068,
    0x0000D53B,
    0x0000C1F6,
    0xFFFFFFB0,
    0x00007C97,
    0x00003E05,
    0x00001683,
    0x00002AE2,
    0x00002E2D,
    0x00009429,
    0x0001DB1B,
    0x000024AD,
    0xFFFFFDE8,
    0xFFFFF3F9,
    0x000009F0,
    0xFFFFB553,
    0xFFFF4108,
    0xFFFFD627,
    0xFFFFC00E,
    0x00001C70,
    0xFFFFFC92,
    0x00001904,
    0x00000993,
    0xFFFFBA89,
    0xFFFEBC67,
    0x0000A671,
    0xFFFF1D40,
    0xFFFEC336,
    0xFFFE89C8,
    0x00000767,
    0x00003D2A,
    0xFFFF08F7,
    0x0000535F,
    0x00007660,
    0x000037A0,
    0x0000188D,
    0x000012A5,
    0x00001E12,
    0xFFFE838A,
    0x000099B3,
    0x00014944,
    0x0000A994,
    0x000044E0,
    0xFFFFC521,
    0xFFFFAF33,
    0xFFFFDBD3,
    0x0000049B,
    0xFFFFFF1F,
    0xFFFECEA2,
    0xFFFDC47F,
    0xFFFCB0CB,
    0xFFFD5487,
    0xFFFFAE2A,
    0xFFFFED8E,
    0x00001828,
    0xFFFFDF5D,
    0xFFFFC90C,
    0xFFFFD28B,
    0x00001676,
    0x00001081,
    0xFFFFDBA6,
    0xFFFEB285,
    0xFFFFE9C6,
    0x00001BC9,
    0xFFFFC91E,
    0x00002379,
    0x000006F4,
    0xFFFF5BE0,
    0xFFFF8D19,
    0x00002F67,
    0x00002319,
    0xFFFF9869,
    0x00005959,
    0x00003A60,
    0xFFFF2A64,
    0xFFFF9866,
    0xFFFFFC18,
    0x00000DC7,
    0xFFFFB1B0,
    0x00003899,
    0xFFFFED34,
    0xFFFFD918,
    0xFFFFF12D,
    0xFFFF40AF,
    0xFFFB589B,
    0xFFFFEC67,
    0xFFFFF70C,
    0x000023D2,
    0x0000979A,
    0x0000857A,
    0xFFFEDDE9,
    0xFFFFF586,
    0x000026A0,
    0x00003CFE,
    0x0000AF79,
    0xFFFFC5BB,
    0x00002683,
    0x0000144B,
    0x0000111C,
    0x00001E20,
    0xFFFE8349,
    0xFFFE7925,
    0xFFFF82D8,
    0xFFFFD00D,
    0xFFFFC2DA,
    0xFFFFE98D,
    0xFFFC1652,
    0xFFFFBF90,
    0xFFFFD5F6,
    0xFFFFF4F7,
    0xFFFD5FCD,
    0xFFFFAC12,
    0xFFFE7F74,
    0xFFFF67B8,
    0xFFFFDA5E,
    0x00000FE2,
    0xFFFFB7E1,
    0xFFFDCC3F,
    0xFFFF9F2B,
    0xFFFFD9F7,
    0xFFFFFAED,
    0x0000509D,
    0xFFFFFEDB,
    0xFFFEDB55,
    0xFFFED032,
    0xFFFF81CD,
    0xFFFE202B,
    0xFFFFEF0B,
    0x0000266F,
    0xFFFF3A34,
    0xFFFFBD36,
    0xFFFF2772,
    0xFFFEC58D,
    0x000004A6,
    0xFFFFD10B,
    0xFFFFD141,
    0xFFFE24C6,
    0xFFFFA10B,
    0x00004EE8,
    0xFFFFDBA2,
    0x00000687,
    0xFFFFC85C,
    0x000010B8,
    0xFFFFFB5F,
    0x00003B0A,
    0xFFFFCC54,
    0xFFFFEE20,
    0x00002846,
    0x0001D06E,
    0x00015662,
    0x000147FC,
    0x0001E663,
    0xFFFF52A9,
    0x0000014C,
    0x0000592D,
    0x00000808,
    0xFFFFFF7D,
    0xFFFFF707,
    0xFFFDC612,
    0xFFFD24D6,
    0xFFFF59F5,
    0xFFFFFF67,
    0xFFFFC282,
    0xFFFFF1ED,
    0xFFFF857A,
    0xFFFFDDF5,
    0x00000D2E,
    0xFFFF09FC,
    0xFFFFBCF2,
    0x00002AFD,
    0x00002AAC,
    0x000004DE,
    0x0000128A,
    0x000045F1,
    0x0000027B,
    0xFFFFCC1C,
    0xFFFFF30D,
    0x00003B51,
    0x00000F8D,
    0x00000B30,
    0x00002DA0,
    0xFFFFE810,
    0xFFFFA243,
    0xFFFFA614,
    0xFFFFF6C7,
    0x00003FB7,
    0xFFFFDFCF,
    0xFFFEEA1D,
    0xFFFF7B60,
    0xFFFFE311,
    0xFFFF5217,
    0xFFFE9616,
    0xFFFDE595,
    0xFFFDE251,
    0xFFFEBDAE,
    0x00003E03,
    0xFFFFA4ED,
    0x00000810,
    0x00004B50,
    0xFFFF2858,
    0xFFFF1AA7,
    0xFFFE7358,
    0xFFFF19BD,
    0x00002082,
    0xFFFFD2C3,
    0x000004D3,
    0xFFFFDC0E,
    0x00002456,
    0x00004130,
    0x00000129,
    0xFFFE2910,
    0x000073DD,
    0xFFFFB599,
    0x00000A88,
    0xFFFFF7E8,
    0x00005341,
    0x00004644,
    0xFFFECCF6,
    0x00003C8E,
    0x00004528,
    0x000020E3,
    0xFFFF0763,
    0xFFFF98BA,
    0x00004CF3,
    0x00004EE4,
    0xFFFEED58,
    0x00003CE3,
    0x000069DB,
    0xFFFF4F33,
    0x00000725,
    0xFFFFFFE2,
    0x0000532B,
    0xFFFFE9D4,
    0x000010A1,
    0x0000464F,
    0x00001279,
    0xFFFFDE4F,
    0xFFFFC8E6,
    0x0000A90B,
    0xFFFFE29B,
    0xFFFF2E6F,
    0xFFFF3779,
    0xFFFE99F5,
    0xFFFE4255,
    0xFFFE61DF,
    0xFFFFCB09,
    0xFFFF7FE4,
    0xFFFFEAFC,
    0x00009F67,
    0x000078A5,
    0x000004D1,
    0xFFFF3914,
    0xFFFFDB20,
    0xFFFFD40D,
    0xFFFFFF0F,
    0xFFFFE30F,
    0x00003CE2,
    0x00007882,
    0x000039F3,
    0xFFFFD817,
    0x00008B88,
    0xFFFF882F,
    0x00004723,
    0xFFFFDE0B,
    0xFFFFAF01,
    0x000023A3,
    0x00005308,
    0xFFFFCDD8,
    0x0000289E,
    0xFFFEC227,
    0xFFFFB521,
    0x00004574,
    0x000008D7,
    0xFFFF955F,
    0xFFFF1F17,
    0x0001BE3D,
    0x00006BA6,
    0x00001762,
    0x00000DE5,
    0x00001FDD,
    0x00000090,
    0x00006DDD,
    0x0001CE9F,
    0x00004884,
    0xFFFFEC81,
    0xFFFFEAF3,
    0x000012B6,
    0x00003DAF,
    0x00004778,
    0xFFFFC8CF,
    0xFFFEF65E,
    0x00002B5F,
    0x000089C9,
    0x00006754,
    0x0000136C,
    0x00004F0D,
    0x00001672,
    0xFFFFEB28,
    0x00000DC6,
    0x000053F1,
    0xFFFFDDED,
    0x0000762A,
    0x0001EE00,
    0x00002FB9,
    0xFFFFC73D,
    0xFFFF3EAF,
    0xFFFFB869,
    0xFFFFEE12,
    0xFFFFEBAC,
    0xFFFF8840,
    0xFFFE9170,
    0xFFFE749A,
    0xFFFF9DC6,
    0x000001F3,
    0xFFFFE284,
    0xFFFFD010,
    0xFFFFCB6D,
    0xFFFE2485,
    0xFFFE9959,
    0x00005EEB,
    0x0000458F,
    0x000018EA,
    0x000046C1,
    0xFFFFF918,
    0xFFFE456A,
    0xFFFF925F,
    0xFFFFDC9E,
    0x00005D0A,
    0xFFFFFC3B,
    0x000009DD,
    0xFFFFAFA6,
    0xFFFDED2A,
    0xFFFF8FF2,
    0xFFFCC2E4,
    0xFFFEE40F,
    0xFFFFE3A8,
    0xFFFFE1E4,
    0xFFFFFB3B,
    0xFFFF774D,
    0x00005799,
    0xFFFE4716,
    0x000035DC,
    0x00000B18,
    0x000043A1,
    0x0000DCEC,
    0xFFFF806B,
    0xFFFFBC45,
    0x000044F6,
    0xFFFFF47B,
    0x00009536,
    0x0000A1E7,
    0x0000C16B,
    0xFFFF78E6,
    0xFFFFEE7C,
    0xFFFF9932,
    0xFFFFA3BC,
    0xFFFFCBB5,
    0x000008C8,
    0x000015BB,
    0x0000045B,
    0xFFFFF03F,
    0x00000DFD,
    0x00001C5E,
    0x00001395,
    0xFFFFE204,
    0x000008FD,
    0x00002D2F,
    0xFFFFEF83,
    0xFFFFFE3F,
    0xFFFFA9BC,
    0xFFFFBFDD,
    0x00003230,
    0x00000380,
    0xFFFF5654,
    0xFFFF9A6A,
    0xFFFF45E8,
    0xFFFFAC8E,
    0x00001FBD,
    0x00003BF8,
    0xFFFFA258,
    0xFFFF24A3,
    0x00002603,
    0xFFFF8B63,
    0xFFFFFCD9,
    0x00001043,
    0x00001BD9,
    0x00006F2D,
    0x0000B88B,
    0x0000AA88,
    0xFFFFED55,
    0xFFFD1880,
    0xFFFD45A8,
    0xFFFFBFE2,
    0xFFFF4CA6,
    0xFFFF06C5,
    0xFFFFE661,
    0x000039D1,
    0xFFFFED50,
    0xFFFF5B3B,
    0xFFFD9C13,
    0xFFFB99D5,
    0xFFFC99F3,
    0xFFFE27D2,
    0x00002A4C,
    0x00003D73,
    0xFFFFDFDA,
    0xFFFFC051,
    0xFFFF982F,
    0xFFFFD943,
    0x0000007A,
    0xFFFF4506,
    0x0000887F,
    0xFFFFD52A,
    0x0000057C,
    0xFFFFF80A,
    0x00001F82,
    0xFFFFE149,
    0xFFFDEFAB,
    0xFFFFFD79,
    0x000086F9,
    0x00003D18,
    0xFFFFF08E,
    0x000076DD,
    0x00003AB3,
    0xFFFF3287,
    0xFFFF4F05,
    0xFFFF9AFD,
    0xFFFFB6EA,
    0xFFFFF26E,
    0xFFFFEA9E,
    0xFFFF43AC,
    0xFFFF9C4E,
    0xFFFED304,
    0xFFFC308D,
    0xFFFF8CA4,
    0xFFFFD95F,
    0xFFFFC4CB,
    0xFFFF74EF,
    0x00003AFE,
    0x000018FD,
    0x000072E6,
    0xFFFFFBE1,
    0xFFFFD3E5,
    0x00003E8F,
    0x00008F0D,
    0x0000DC56,
    0xFFFFA166,
    0x00000BE3,
    0x00000F4E,
    0x0000F354,
    0xFFFFEBBA,
    0x00012B6C,
    0x0001170D,
    0x00005E1C,
    0x000045F5,
    0xFFFF21D1,
    0xFFFFA856,
    0xFFFFEEBA,
    0x0000235A,
    0xFFFFEDFE,
    0xFFFE0AB5,
    0x00007C08,
    0xFFFFCB14,
    0xFFFFEFB7,
    0x00002E21,
    0xFFFFF015,
    0x00000EB1,
    0xFFFE00AA,
    0x00008DCF,
    0x000051BE,
    0x000067CD,
    0xFFFF7F4D,
    0xFFFFB913,
    0x00005103,
    0xFFFFF22A,
    0xFFFF4583,
    0x00001D4C,
    0x0000763E,
    0xFFFF9E5C,
    0x00001647,
    0x00004364,
    0xFFFE3DB9,
    0xFFFF258F,
    0xFFFFF765,
    0x000037CE,
    0x00000EAD,
    0xFFFFC4E5,
    0xFFFF568C,
    0xFFFF928A,
    0x00002488,
    0xFFFF1D97,
    0xFFFED7C4,
    0xFFFE1503,
    0xFFFDC519,
    0xFFFE68EF,
    0xFFFFC353,
    0xFFFFEC99,
    0x00004FD0,
    0x00015F1E,
    0x0000689E,
    0x00004E87,
    0x000145AC,
    0x0002D761,
    0x0000EAD0,
    0x0000451F,
    0xFFFF7581,
    0xFFFF9BFB,
    0xFFFFDCCB,
    0x00000D0E,
    0x00004D42,
    0xFFFFC7A0,
    0x00001886,
    0xFFFF4A90,
    0xFFFFE269,
    0xFFFFE84A,
    0xFFFF2D4C,
    0xFFFE33FF,
    0xFFFDE493,
    0xFFFFA80D,
    0x000018E8,
    0x000011EE,
    0x0000051B,
    0x00001679,
    0x000063CE,
    0xFFFE1480,
    0xFFFFE97B,
    0xFFFFF226,
    0x00004312,
    0xFFFFF3F8,
    0x00002F64,
    0x00003871,
    0xFFFE3F95,
    0x0000391A,
    0xFFFFDD50,
    0xFFFFF9A3,
    0x000036D0,
    0x00001949,
    0xFFFFA6B6,
    0xFFFF354B,
    0x00003437,
    0xFFFFB5D3,
    0xFFFDB290,
    0xFFFCEE33,
    0xFFFDC290,
    0xFFFE894A,
    0xFFFFC825,
    0xFFFFBEFD,
    0xFFFFEAAF,
    0x0000FF75,
    0x0000C060,
    0x00005D72,
    0x0000EE96,
    0xFFFF72DA,
    0x000031C2,
    0xFFFFD9EE,
    0xFFFFAD1B,
    0x000002E8,
    0x00003738,
    0x00001BA1,
    0x00000704,
    0x00004AAE,
    0xFFFF1546,
    0x0000680B,
    0x00002BCA,
    0xFFFFF197,
    0xFFFFEA78,
    0x00001720,
    0x000069D5,
    0x00003E46,
    0xFFFE6F5F,
    0xFFFF9249,
    0x0000585D,
    0xFFFFE6F9,
    0xFFFFE29D,
    0x000068C6,
    0xFFFFC561,
    0xFFFFBE4C,
    0x00005B9E,
    0x00002447,
    0xFFFFC781,
    0xFFFFEDFD,
    0x0000C2F4,
    0xFFFF899C,
    0xFFFFF3FF,
    0x00000FF4,
    0xFFFFF2AD,
    0xFFFFF716,
    0x00003EA8,
    0xFFFFB055,
    0x00001385,
    0xFFFE0405,
    0xFFFEE0F7,
    0xFFFF5BC8,
    0x00000721,
    0xFFFFDFA4,
    0xFFFFF0C4,
    0x00001E90,
    0x00008CCA,
    0xFFFEE996,
    0xFFFE6926,
    0x0000D376,
    0xFFFE2413,
    0xFFFE4BA3,
    0xFFFFE50B,
    0xFFFFF4AC,
    0xFFFFF605,
    0x0000315A,
    0x0000C610,
    0xFFFF81D6,
    0x0000198D,
    0x000000B6,
    0x0000E58E,
    0x00002E07,
    0x00000D7F,
    0x000008AD,
    0x00003BA9,
    0x0000032B,
    0x0000A057,
    0x0000580E,
    0xFFFEC0F2,
    0xFFFF5A80,
    0xFFFFA0A3,
    0xFFFE606B,
    0xFFFFD987,
    0x000050EF,
    0xFFFFE3F3,
    0xFFFED4B0,
    0x000012CB,
    0xFFFE93BF,
    0x00002F1F,
    0x0000721F,
    0xFFFFB639,
    0xFFFDE5BB,
    0xFFFFE083,
    0xFFFDBF0D,
    0xFFFFD4AC,
    0xFFFF77BE,
    0x0000F39F,
    0x0000247E,
    0x00002C51,
    0xFFFFE65A,
    0x000038B9,
    0xFFFFF52A,
    0x0000C720,
    0x0000330F,
    0x00000E10,
    0x00001120,
    0xFFFEDDEA,
    0x00014177,
    0x00013B6C,
    0xFFFEE93D,
    0x000156A8,
    0x0000D066,
    0x00003339,
    0xFFFE9873,
    0xFFFFFBE0,
    0xFFFEC939,
    0x000000ED,
    0xFFFFEDBE,
    0xFFFF151B,
    0x00002B24,
    0xFFFE68BE,
    0xFFFF5034,
    0x00002577,
    0xFFFFEC22,
    0xFFFFC5D9,
    0xFFFFF343,
    0x00007CD3,
    0xFFFFF789,
    0xFFFE902C,
    0x00004713,
    0x0000CD8E,
    0x00005E9B,
    0xFFFEE451,
    0xFFFFFA63,
    0xFFFFF668,
    0x000040B6,
    0x00009374,
    0x000078A1,
    0xFFFEE2A1,
    0xFFFFEAA9,
    0x000022B9,
    0x00005436,
    0xFFFF9FBF,
    0x0000FE73,
    0x00000BD8,
    0x00008D13,
    0x0000439B,
    0xFFFF1DEC,
    0xFFFFE197,
    0x00006F39,
    0xFFFFC0F5,
    0xFFFFEAD9,
    0xFFFFE99B,
    0x00006619,
    0xFFFFBD95,
    0x00004C4F,
    0xFFFE6390,
    0xFFFFD1EA,
    0x00011835,
    0xFFFF3B7E,
    0xFFFF5350,
    0x0000E94A,
    0x00000885,
    0xFFFF8E43,
    0xFFFE83B5,
    0xFFFEC8C7,
    0xFFFFBF81,
    0x0000093A,
    0xFFFF43AD,
    0xFFFF982C,
    0xFFFF34E3,
    0xFFFF7F86,
    0x00001859,
    0xFFFFF879,
    0xFFFEF9EF,
    0xFFFE9593,
    0xFFFE52AE,
    0xFFFE84DD,
    0xFFFEDAE9,
    0x00009391,
    0xFFFEA3D0,
    0xFFFF4EDB,
    0xFFFF3EF0,
    0x00003F51,
    0xFFFFF169,
    0xFFFE9024,
    0x00001D49,
    0xFFFEFA71,
    0xFFFEF184,
    0xFFFE2A85,
    0x00000A32,
    0xFFFFDCBF,
    0xFFFEDBD9,
    0xFFFE7633,
    0x00002DA6,
    0x00009359,
    0xFFFE846C,
    0xFFFE658E,
    0xFFFFF531,
    0x000018A1,
    0x000002C0,
    0x00001404,
    0xFFFEA7A3,
    0xFFFE2693,
    0x00001349,
    0x00002CCB,
    0xFFFF87B0,
    0xFFFE9A3D,
    0xFFFF6D3F,
    0x0000013E,
    0x000015B9,
    0xFFFF18E8,
    0x0000DA06,
    0xFFFFF81C,
    0xFFFFDD05,
    0xFFFFD316,
    0xFFFFFF5D,
    0x00006E0F,
    0xFFFFDE01,
    0xFFFEF35F,
    0x000052A4,
    0x00002466,
    0x00002A78,
    0x000119A9,
    0xFFFFC457,
    0xFFFFF0EF,
    0xFFFE77CB,
    0xFFFE399E,
    0x000086A6,
    0x00001337,
    0xFFFE953E,
    0x0000A418,
    0x00000BB9,
    0x00007DF1,
    0x00003E33,
    0x00006BDA,
    0xFFFE3B4E,
    0xFFFF8E8B,
    0xFFFFADE6,
    0xFFFFA0EA,
    0xFFFF95BE,
    0x00007404,
    0xFFFFED80,
    0x000035EA,
    0x0000B2CF,
    0xFFFFB73E,
    0xFFFEF1C9,
    0xFFFFB640,
    0x0000362E,
    0x000000C3,
    0xFFFFBFC7,
    0x0000A4E4,
    0xFFFF5E8F,
    0xFFFEE904,
    0xFFFFCBC4,
    0x000022A9,
    0xFFFE67B1,
    0x00002B27,
    0xFFFF452A,
    0xFFFF388A,
    0x0000AC9F,
    0xFFFEFFD0,
    0x0001246A,
    0xFFFF04ED,
    0xFFFFD6F7,
    0xFFFEE297,
    0x00001DAB,
    0xFFFFF7BB,
    0xFFFEA151,
    0x00008631,
    0xFFFEB169,
    0xFFFFDEB1,
    0x000023B0,
    0xFFFFF3BB,
    0xFFFF8C7C,
    0xFFFFDA1A,
    0xFFFFAF17,
    0xFFFF5CFD,
    0xFFFE67DC,
    0xFFFFF0B6,
    0x0000BE45,
    0x0000762F,
    0xFFFEF854,
    0x00008D65,
    0xFFFFEEE4,
    0x00002E8E,
    0xFFFEA96A,
    0x00008EA1,
    0x00004112,
    0xFFFF6B10,
    0xFFFF70D4,
    0xFFFFFE3B,
    0xFFFFDCB0,
    0x0000AF41,
    0xFFFFFE12,
    0xFFFFABEB,
    0xFFFED6FD,
    0xFFFE7F5E,
    0x00003143,
    0x00002C41,
    0xFFFFEEDE,
    0x00000453,
    0xFFFE8197,
    0x00001C89,
    0xFFFFF7C3,
    0x000049D9,
    0xFFFF12D3,
    0xFFFFAF32,
    0x00012840,
    0xFFFF982D,
    0xFFFFF357,
    0x0000DAF4,
    0x00000BAF,
    0xFFFFEE4E,
    0x0000B81C,
    0xFFFF4632,
    0xFFFFC269,
    0xFFFF1D21,
    0x00002D86,
    0xFFFF7BB2,
    0xFFFFC078,
    0xFFFEDC20,
    0xFFFED936,
    0xFFFE5D21,
    0x0000227C,
    0x0000431B,
    0xFFFE70FE,
    0x000019CB,
    0xFFFE972A,
    0x00001051,
    0xFFFE1DC3,
    0x00001C2A,
    0x0000318E,
    0x00000ABB,
    0xFFFF08E9,
    0x0000A19E,
    0x0000114E,
    0xFFFEA371,
    0xFFFECF58,
    0xFFFFD53E,
    0x00008B0A,
    0x0000242B,
    0xFFFFA129,
    0xFFFFE995,
    0xFFFE09C2,
    0x00002A74,
    0xFFFFA2B5,
    0xFFFFD709,
    0x00003FB2,
    0xFFFE72F2,
    0x00007540,
    0xFFFDDFC3,
    0xFFFF6428,
    0xFFFEAEC4,
    0x000052A2,
    0x00002A54,
    0xFFFEAE8A,
    0x00015045,
    0x00015569,
    0x00001C39,
    0x00001193,
    0x0000FAAB,
    0x00001590,
    0x00001066,
    0xFFFD66F4,
    0xFFFFF3A9,
    0x0000117C,
    0xFFFFFBA1,
    0xFFFFE057,
    0x00005C66,
    0x000065AE,
    0x00003C50,
    0x00001679,
    0x0000EFD2,
    0xFFFF3471,
    0xFFFEE51D,
    0xFFFE66CF,
    0xFFFEA156,
    0x0000602F,
    0x00009B4A,
    0x000062C2,
    0xFFFF8A58,
    0xFFFFF978,
    0x00005138,
    0x00001486,
    0xFFFEECC0,
    0xFFFFB91A,
    0x0000A871,
    0x00009694,
    0xFFFF687A,
    0xFFFFE758,
    0xFFFFE5D8,
    0x00001B44,
    0x00001BFB,
    0x00008747,
    0x0001858F,
    0xFFFF5647,
    0xFFFEA9C8,
    0xFFFFE226,
    0xFFFFE09D,
    0x0000005D,
    0x0000855C,
    0xFFFE690C,
    0xFFFF979A,
    0x00001734,
    0x00000FAC,
    0x00008242,
    0x0000A3F5,
    0xFFFED55B,
    0x000033CD,
    0x00007AF0,
    0xFFFEA951,
    0xFFFFFFF0,
    0xFFFFBE99,
    0x0000C280,
    0x00000EB3,
    0xFFFFEDFD,
    0xFFFF8B4B,
    0x00003DAF,
    0x00001617,
    0x0001514F,
    0x0000B863,
    0x000001BC,
    0xFFFFF54F,
    0x0000B945,
    0x000080CF,
    0xFFFF9339,
    0xFFFFF792,
    0xFFFF34BC,
    0xFFFE4DF3,
    0x00000A38,
    0x00006F82,
    0xFFFFFED5,
    0xFFFFC5C5,
    0xFFFFDC16,
    0x000071AE,
    0xFFFF3ED7,
    0x00006A27,
    0x00014B0C,
    0x00002187,
    0x00004A19,
    0x000008E0,
    0x00003419,
    0x00009C2F,
    0xFFFFF876,
    0xFFFFA811,
    0xFFFF3E00,
    0x000043FA,
    0xFFFFF9FC,
    0xFFFFE21D,
    0xFFFFE965,
    0xFFFFFD02,
    0x000001E6,
    0xFFFFD092,
    0xFFFFDAF8,
    0x0000189C,
    0xFFFF8AC3,
    0xFFFED7CB,
    0xFFFECB41,
    0x00002839,
    0xFFFFCF58,
    0xFFFEDD46,
    0xFFFFBFBC,
    0x00000F7F,
    0xFFFDE10C,
    0x000032B9,
    0x00000AB8,
    0x00001976,
    0x000065D2,
    0xFFFF3BC6,
    0x000092CD,
    0x00003DF4,
    0x00004205,
    0x000088CF,
    0xFFFF8463,
    0xFFFF9852,
    0xFFFF14EB,
    0xFFFE77CE,
    0x00005888,
    0x00004173,
    0xFFFE5B3E,
    0xFFFF8535,
    0x0000122F,
    0x0000286E,
    0x00002BBB,
    0xFFFF8EE5,
    0xFFFE5724,
    0xFFFFC917,
    0x00000222,
    0xFFFFCC7E,
    0xFFFE6491,
    0x00001E77,
    0x00000152,
    0xFFFF5457,
    0x00009717,
    0x000038D4,
    0xFFFF428A,
    0xFFFF793D,
    0xFFFE2548,
    0x000044BA,
    0xFFFE4C05,
    0x00005B5C,
    0xFFFF4A9E,
    0xFFFF3A89,
    0xFFFE0F72,
    0x00003633,
    0x0000AB73,
    0x00005E3D,
    0xFFFE9F95,
    0xFFFFE983,
    0xFFFFD3F3,
    0xFFFEADC7,
    0x0000385F,
    0xFFFE5C98,
    0xFFFEABB6,
    0x00003A7D,
    0x00008163,
    0xFFFEEF1F,
    0xFFFEEA50,
    0x0000C99B,
    0xFFFF45DB,
    0xFFFF39D8,
    0xFFFFD3B2,
    0xFFFEDE48,
    0xFFFFF814,
    0xFFFF17E3,
    0x00007B08,
    0xFFFFDA67,
    0xFFFFB8DC,
    0xFFFF08E3,
    0x00019769,
    0xFFFF9D85,
    0xFFFEA857,
    0x00005F58,
    0xFFFF88B3,
    0xFFFE9CC9,
    0xFFFFAF18,
    0x000126EE,
    0x000020B7,
    0xFFFFF246,
    0xFFFEE10A,
    0xFFFF143D,
    0x00002F41,
    0x00001439,
    0xFFFEC9DD,
    0xFFFF3792,
    0x00006E8F,
    0x00002C82,
    0xFFFFFC20,
    0xFFFFC598,
    0x00000240,
    0xFFFF343B,
    0x00007F6F,
    0x0000A8B1,
    0x00000A78,
    0x00005011,
    0x0000B0E2,
    0x0000E7B6,
    0x0001C1D1,
    0xFFFF41D3,
    0x000026C1,
    0x0001642C,
    0x00007EE2,
    0xFFFE8211,
    0xFFFFE308,
    0x0000351E,
    0x00003265,
    0xFFFEEC73,
    0xFFFF6FBD,
    0x000019A6,
    0xFFFF0BA1,
    0xFFFF276E,
    0xFFFE7C3B,
    0xFFFE6311,
    0x000004CF,
    0xFFFFD6E5,
    0xFFFF3674,
    0xFFFEFA3D,
    0xFFFF3CC4,
    0xFFFFDF3F,
    0x000019A1,
    0x00006BFC,
    0xFFFF5039,
    0x000013B0,
    0xFFFE4342,
    0x0000314E,
    0xFFFFE596,
    0x00005888,
    0x000004AE,
    0xFFFFB2EE,
    0xFFFFDF5A,
    0x0000315E,
    0x00002A21,
    0x0000690F,
    0xFFFE9012,
    0x00006A0F,
    0xFFFF340B,
    0x00003173,
    0xFFFFE423,
    0xFFFE51B4,
    0xFFFFE846,
    0xFFFE77BD,
    0x000027B0,
    0xFFFFC379,
    0xFFFFF985,
    0x000038C3,
    0x000079B9,
    0xFFFF98B7,
    0x0000F99C,
    0xFFFE8825,
    0xFFFDE2AA,
    0x000180F7,
    0xFFFFC916,
    0x00004B86,
    0x00000649,
    0x00007B88,
    0xFFFFDABF,
    0x00001241,
    0x000050CA,
    0xFFFF8A96,
    0xFFFECF05,
    0xFFFE2D40,
    0xFFFF3E39,
    0x00000DF6,
    0x000012A9,
    0xFFFFD51F,
    0xFFFF2B8C,
    0x00001251,
    0x0000693B,
    0x00000407,
    0xFFFE597B,
    0xFFFEA275,
    0x0000573F,
    0xFFFFEF5E,
    0x00000385,
    0xFFFF6F1C,
    0xFFFFF6AA,
    0xFFFDDCDB,
    0xFFFF9D71,
    0xFFFFEE57,
    0x0000A0CD,
    0xFFFFDAA1,
    0x00000CC1,
    0xFFFD3422,
    0xFFFFBF30,
    0xFFFFDAD7,
    0xFFFF7225,
    0x00002AD7,
    0x00000CD2,
    0xFFFF0D21,
    0x0000AC11,
    0xFFFFD6A6,
    0x00003054,
    0xFFFF5140,
    0x00007CDB,
    0x00000955,
    0x000092D0,
    0x00006AB6,
    0xFFFEA565,
    0xFFFEF5CC,
    0x0000BC7C,
    0xFFFF37CB,
    0xFFFFFC16,
    0x000092BF,
    0x00010D4D,
    0x0000E916,
    0xFFFFC667,
    0x0000266F,
    0x000075DE,
    0x0000130F,
    0xFFFE6972,
    0xFFFF88F1,
    0xFFFFBA61,
    0x0000059F,
    0x000061AC,
    0x0000572F,
    0xFFFF7B6C,
    0x00002CAF,
    0x0000E891,
    0xFFFFC01D,
    0x00001F4B,
    0x00002614,
    0x0000E6D1,
    0xFFFFAD82,
    0x00001A2E,
    0x0000974B,
    0xFFFF1225,
    0x000073A5,
    0x000045E9,
    0x000003E3,
    0x00006487,
    0x00005A61,
    0x00009D89,
    0x00009BC6,
    0xFFFFED5C,
    0xFFFF24D4,
    0xFFFFA5E6,
    0x00004D5B,
    0xFFFFF33E,
    0xFFFF972A,
    0xFFFFC999,
    0xFFFFFB77,
    0xFFFFCB26,
    0xFFFFE880,
    0xFFFFDD5F,
    0x000036D0,
    0xFFFE956A,
    0x000148D4,
    0x00010399,
    0x00002238,
    0xFFFFC213,
    0x0000AF52,
    0x0000281D,
    0xFFFE9A55,
    0xFFFF031F,
    0xFFFEFF25,
    0x000040C4,
    0xFFFE9888,
    0xFFFF7716,
    0x0000D87E,
    0xFFFFA5DD,
    0xFFFFB0C5,
    0xFFFFB60A,
    0xFFFE5997,
    0xFFFF24F2,
    0xFFFF7CE3,
    0x00005A0D,
    0xFFFFF116,
    0x000004B2,
    0xFFFFD2E7,
    0x000161DB,
    0xFFFFC7BB,
    0xFFFF4413,
    0x00001E88,
    0xFFFF6E4C,
    0xFFFF3E1F,
    0x000063D1,
    0x0000D4CF,
    0x000057E4,
    0xFFFFCE8A,
    0xFFFFE809,
    0xFFFFAB39,
    0xFFFFEE95,
    0xFFFFF2BE,
    0xFFFF1410,
    0x0000011F,
    0x00007DC0,
    0xFFFED8E7,
    0xFFFFF5DD,
    0xFFFFACB6,
    0x000035B5,
    0xFFFEFD3F,
    0xFFFFB3E7,
    0x0000AFE7,
    0x00003107,
    0x00002DF0,
    0x000062A4,
    0xFFFE1C20,
    0xFFFE6550,
    0xFFFE4DB9,
    0xFFFFF542,
    0xFFFE5F10,
    0x00001D5D,
    0x00008891,
    0x0000E04C,
    0x00004AC6,
    0xFFFF0D45,
    0x000063AE,
    0x00001006,
    0xFFFF6498,
    0xFFFE2E2F,
    0xFFFFA4B8,
    0xFFFFEBC8,
    0xFFFFFB94,
    0x00002704,
    0x000033E2,
    0xFFFDC36D,
    0xFFFFE920,
    0x0000C4AA,
    0x0000211A,
    0xFFFDD5B5,
    0x00003C63,
    0x00006014,
    0x000024DE,
    0x00001E0E,
    0x0000A815,
    0xFFFE5B49,
    0xFFFE4002,
    0xFFFF2D1B,
    0xFFFFE530,
    0xFFFF9309,
    0x00002171,
    0xFFFFEF17,
    0xFFFFDFC0,
    0x00000EA0,
    0xFFFF981D,
    0xFFFF0CBB,
    0x00004E82,
    0x00006A06,
    0x00000AA8,
    0xFFFFF7E0,
    0xFFFFF9EB,
    0x00001D75,
    0xFFFE53A6,
    0x0000012F,
    0x00003233,
    0xFFFEEDAD,
    0xFFFED420,
    0xFFFE6734,
    0x00000A70,
    0xFFFF9F7D,
    0xFFFE7C22,
    0x00003F5B,
    0xFFFFD902,
    0x0000D9F4,
    0xFFFE45D5,
    0x00000730,
    0xFFFF74B3,
    0x00000370,
    0x000029A9,
    0xFFFFAE28,
    0xFFFF5552,
    0xFFFFF3B8,
    0xFFFE5CB4,
    0xFFFFD8B1,
    0x00003D69,
    0x0000A6AE,
    0x000073CC,
    0xFFFEF181,
    0xFFFF4F28,
    0xFFFFF7CE,
    0x000097F2,
    0x000012EB,
    0x00002A70,
    0xFFFFC030,
    0x0000F3D5,
    0x000028F0,
    0xFFFEA75B,
    0xFFFF0B46,
    0x00001713,
    0xFFFFA72D,
    0xFFFFD1D7,
    0xFFFFA702,
    0xFFFFD94E,
    0xFFFEF80C,
    0xFFFEDEC2,
    0x00009C29,
    0xFFFFA547,
    0x00009030,
    0xFFFFF867,
    0x0000361E,
    0xFFFF2D3F,
    0xFFFFCD02,
    0x00005F4B,
    0x000041F0,
    0x0000431F,
    0xFFFEAE71,
    0xFFFFB5AE,
    0x0001406D,
    0xFFFFBAF2,
    0xFFFFF2A1,
    0x00018E3A,
    0x00000D88,
    0x0000771D,
    0x00016F04,
    0xFFFF2EE7,
    0xFFFF8931,
    0xFFFFCA4F,
    0x00003722,
    0xFFFF731A,
    0x000001E7,
    0x00001749,
    0xFFFF8C34,
    0xFFFF68ED,
    0xFFFFE802,
    0x000050E1,
    0xFFFFDE79,
    0x000039DD,
    0xFFFFDD2E,
    0xFFFFF02A,
    0xFFFEF2CC,
    0x00001C1D,
    0x0000A59B,
    0xFFFFEF82,
    0xFFFFD68B,
    0x0000E31B,
    0x0000080B,
    0xFFFE8668,
    0xFFFF53FB,
    0xFFFFE2FA,
    0x00010E55,
    0x00002805,
    0xFFFFBEB1,
    0xFFFFF138,
    0xFFFF4465,
    0xFFFFF16F,
    0xFFFFDC34,
    0xFFFFC788,
    0x000069E8,
    0xFFFF6ED6,
    0x0000CF9C,
    0xFFFF75E2,
    0xFFFF4272,
    0xFFFFBF1A,
    0x000092F1,
    0x0000025E,
    0xFFFF3A83,
    0x00013085,
    0x0000E992,
    0x0000346C,
    0x00002415,
    0x000185B2,
    0xFFFF1260,
    0x0000A144,
    0x0000757E,
    0xFFFFF879,
    0x0000054E,
    0x00000B20,
    0x0000BD7D,
    0x000048C3,
    0xFFFFD4A7,
    0xFFFFDE22,
    0xFFFFE4C3,
    0x000003FF,
    0xFFFFE799,
    0x00004862,
    0x00006D6A,
    0x0000BD72,
    0x0000CDAA,
    0x000002BB,
    0x0000682D,
    0xFFFFDC52,
    0x0000D24B,
    0xFFFF1841,
    0x00000B82,
    0xFFFFB224,
    0x00012191,
    0x00007EF7,
    0x00001FAC,
    0xFFFFF8B9,
    0x0000FC56,
    0x000024BD,
    0x00000657,
    0x00001FF1,
    0xFFFFEA82,
    0xFFFFDE35,
    0x00008243,
    0xFFFFBB6F,
    0xFFFFCFA4,
    0xFFFFD0F9,
    0x00002439,
    0x0000050C,
    0xFFFFCB6C,
    0x00005887,
    0xFFFFF53F,
    0x00002693,
    0xFFFF25D0,
    0xFFFEEF17,
    0xFFFEB755,
    0xFFFEC3C6,
    0x00000321,
    0xFFFE6764,
    0x00003114,
    0x0000F130,
    0x000145CF,
    0x000003AF,
    0xFFFF91F3,
    0x000037FE,
    0x0000678C,
    0x00000D65,
    0xFFFEC4FC,
    0xFFFFA453,
    0xFFFFE1A2,
    0xFFFFF464,
    0xFFFFD737,
    0x000073AA,
    0xFFFDAB9D,
    0xFFFFF6D3,
    0x000119A7,
    0x00001241,
    0xFFFEC9EB,
    0x00003EA5,
    0x000134D0,
    0x0000162E,
    0x00000902,
    0x0000D28E,
    0xFFFEC95D,
    0xFFFEFC2D,
    0xFFFF276F,
    0xFFFFB413,
    0xFFFFE42E,
    0x000034FA,
    0x00000CB4,
    0x00001798,
    0x00000556,
    0xFFFF2A81,
    0xFFFF94C7,
    0xFFFFC6FB,
    0x0001058D,
    0xFFFFECE2,
    0x000063E1,
    0xFFFFF944,
    0xFFFF8021,
    0xFFFEC97A,
    0x00002B3D,
    0xFFFFFE2E,
    0xFFFF182B,
    0x00010367,
    0xFFFFE08C,
    0x00005CA1,
    0x0000EC4A,
    0x00005E5F,
    0xFFFFF8F4,
    0x00000319,
    0x0000AEE6,
    0xFFFFB9AD,
    0xFFFFF3F1,
    0xFFFF4437,
    0x00009B48,
    0x00002801,
    0x000187C1,
    0x00008CF2,
    0x00000AF6,
    0xFFFFF768,
    0x000018B9,
    0x0000B6D3,
    0xFFFFDFCE,
    0x00001758,
    0xFFFF2321,
    0xFFFF509B,
    0x00000999,
    0x00003814,
    0x00007311,
    0xFFFFC838,
    0xFFFFC931,
    0x00005A5E,
    0xFFFFFFB6,
    0x00006692,
    0x0000EC85,
    0xFFFFF7FB,
    0x00010C15,
    0x000037FD,
    0x00000743,
    0x0000D21B,
    0x0000220F,
    0x00006F8E,
    0xFFFFA6FB,
    0xFFFFC5CA,
    0xFFFFFC58,
    0xFFFFE5A3,
    0x00001556,
    0x00000766,
    0xFFFF6568,
    0xFFFFF50F,
    0xFFFFF166,
    0x00001150,
    0x00009AED,
    0xFFFFFFB4,
    0x0000DA76,
    0x00005517,
    0xFFFE07B6,
    0x000114D0,
    0xFFFE4FF4,
    0x0000398A,
    0xFFFEDEBC,
    0x0000ABA3,
    0x00001D16,
    0x0000095B,
    0x00001273,
    0xFFFFF7CC,
    0xFFFFACC6,
    0xFFFF937E,
    0xFFFFD6BC,
    0x00000620,
    0xFFFFEB15,
    0xFFFDF551,
    0x00007455,
    0x000019EA,
    0x00009741,
    0x00003736,
    0xFFFFF5B3,
    0xFFFEAFFC,
    0x00003030,
    0xFFFF5793,
    0x00001400,
    0xFFFE240E,
    0x0000E351,
    0xFFFFBFB3,
    0xFFFFB5A3,
    0x000048EA,
    0x00007F96,
    0x0000201D,
    0x000030C7,
    0xFFFE27D0,
    0xFFFFE819,
    0x00004613,
    0x0000B011,
    0x000032ED,
    0xFFFED11C,
    0xFFFFE2D5,
    0xFFFFEA0B,
    0xFFFFFC9E,
    0x000089C5,
    0x000025A4,
    0xFFFFFDAD,
    0x00001D0A,
    0xFFFEFB79,
    0x00006D5E,
    0x0000E6AA,
    0xFFFED0B0,
    0x00004844,
    0x0000FF82,
    0xFFFFF8B0,
    0x00000B8B,
    0x00002555,
    0x0000129A,
    0xFFFDF503,
    0x0000536C,
    0xFFFFFDCE,
    0xFFFED6AE,
    0xFFFE78C4,
    0xFFFF5A23,
    0xFFFFF544,
    0x000007D1,
    0xFFFF888E,
    0xFFFFEE34,
    0xFFFE8C68,
    0xFFFF04EF,
    0x00005745,
    0x000082B3,
    0xFFFF4104,
    0x000036F7,
    0x000012FB,
    0xFFFFE261,
    0x0000339C,
    0x00007826,
    0x0000499E,
    0xFFFFCD99,
    0xFFFE3EC7,
    0xFFFDBF75,
    0x000013D1,
    0x00008AEB,
    0xFFFFF48A,
    0x00003309,
    0x00003A9F,
    0x0000A6DE,
    0xFFFE031F,
    0xFFFED197,
    0xFFFFEB24,
    0x0000332B,
    0xFFFFE50F,
    0x000013F4,
    0xFFFE7117,
    0xFFFE6894,
    0xFFFFECCB,
    0xFFFFF457,
    0xFFFEF470,
    0xFFFE2DEA,
    0xFFFE69A3,
    0x0000D772,
    0xFFFF1843,
    0xFFFF4C1D,
    0xFFFF86C1,
    0x00009D8C,
    0x00003A78,
    0xFFFFBE57,
    0x00000E02,
    0x00003ED9,
    0x0000770B,
    0xFFFFDB53,
    0x0001949A,
    0x00000EE6,
    0x0000520E,
    0x000095F0,
    0x0000145B,
    0x00003A60,
    0x000087D1,
    0x000090FA,
    0x00009F0A,
    0xFFFFCE81,
    0xFFFFD7BE,
    0xFFFF84A3,
    0x00004AB6,
    0xFFFFA402,
    0x0000655B,
    0xFFFFDAAE,
    0x000035E6,
    0xFFFE38EA,
    0xFFFF7451,
    0x00005CDA,
    0x000027CD,
    0x00000EF3,
    0xFFFFD20E,
    0xFFFE9ED7,
    0x00009B47,
    0xFFFFC6C2,
    0x0000B1FA,
    0xFFFF36E6,
    0x0000027F,
    0x00009A7F,
    0x00000E0D,
    0x00006005,
    0xFFFF9B25,
    0x000034D4,
    0xFFFFFFDD,
    0x00002BCF,
    0x0000C965,
    0x00008E76,
    0xFFFE07A8,
    0xFFFF4D2C,
    0x00004D1F,
    0xFFFE2186,
    0x00005DD2,
    0xFFFFFAE0,
    0xFFFFFF4D,
    0x0001030B,
    0xFFFFEEBF,
    0x000043FD,
    0xFFFFEA91,
    0x000045AE,
    0xFFFE6928,
    0xFFFFA96D,
    0xFFFFCEBC,
    0x0000051D,
    0xFFFFE77E,
    0x000002EC,
    0xFFFFC2CA,
    0xFFFF56CB,
    0x0000D78C,
    0x00000805,
    0x0000A86F,
    0x00007254,
    0x000037F7,
    0xFFFFAF29,
    0x00000B84,
    0x00004BB4,
    0xFFFE8249,
    0x0000CCB4,
    0x00000AE1,
    0xFFFFC980,
    0xFFFF53FC,
    0x00002AF5,
    0x0000838E,
    0x0000B235,
    0xFFFFFF5F,
    0xFFFF84CB,
    0xFFFF9DD9,
    0x00003DD1,
    0xFFFFE720,
    0xFFFFC295,
    0xFFFEE7B7,
    0xFFFFEB18,
    0x000046E1,
    0x0000192F,
    0xFFFF3884,
    0x0000AF2D,
    0x00008B68,
    0xFFFDF621,
    0xFFFE1D50,
    0xFFFEB58D,
    0xFFFE1FDF,
    0xFFFEE2B4,
    0xFFFDD678,
    0x00004E1A,
    0xFFFEE94C,
    0x0000A888,
    0x00009372,
    0x00009A65,
    0x00005D40,
    0xFFFE956A,
    0x000075F6,
    0xFFFE7714,
    0xFFFE9803,
    0xFFFD3E0A,
    0xFFFE733B,
    0xFFFE1B52,
    0x0000C2CA,
    0xFFFCE1AC,
    0xFFFF492C,
    0x00007D6B,
    0xFFFF7B1C,
    0xFFFD5DC1,
    0x00006A2D,
    0x00011220,
    0xFFFE76C0,
    0xFFFE354F,
    0x0000CAF6,
    0x00007ACD,
    0xFFFEFBB6,
    0xFFFE2889,
    0xFFFDBF65,
    0x00008ADB,
    0x0000882F,
    0xFFFF6958,
    0x000084B5,
    0xFFFE737D,
    0xFFFF08A7,
    0x0000A348,
    0x00007AF0,
    0xFFFFB23A,
    0x00001761,
    0x0000A945,
    0x0000A2F5,
    0xFFFEB2B5,
    0xFFFE8151,
    0xFFFF6BC7,
    0x0000601F,
    0xFFFF2339,
    0xFFFE9C52,
    0xFFFF77B2,
    0xFFFEEBCB,
    0x0000A1B1,
    0xFFFE9999,
    0x0000398B,
    0xFFFF5A97,
    0xFFFEFD71,
    0xFFFEE881,
    0x0000886D,
    0x00004A4C,
    0xFFFF1B3A,
    0x00008B17,
    0x00009CA3,
    0x00009779,
    0x000075A5,
    0x00009557,
    0x00005084,
    0xFFFFF2B6,
    0xFFFEB710,
    0x00006D85,
    0xFFFF60BE,
    0xFFFEEA9D,
    0xFFFF0F7E,
    0x000083A5,
    0xFFFF53DC,
    0x00006981,
    0x000090B1,
    0x00008AFA,
    0xFFFF4D8D,
    0x00004801,
    0xFFFF3246,
    0xFFFF416C,
    0x00005CCF,
    0xFFFF862B,
    0x000056BD,
    0xFFFF384E,
    0x000099E7,
    0x00008D74,
    0x00007CCD,
    0xFFFFCFD9,
    0x00008460,
    0x00004D47,
    0xFFFE9BE4,
    0x000055A9,
    0xFFFF85D3,
    0x00006C04,
    0x00011F71,
    0x00008275,
    0xFFFF5A55,
    0xFFFFF317,
    0x0000840B,
    0xFFFFD8DE,
    0xFFFD9914,
    0x00007927,
    0x00003985,
    0x0000AD91,
    0xFFFF18A8,
    0xFFFDD83E,
    0xFFFDFCA3,
    0xFFFE722D,
    0xFFFEF96C,
    0xFFFEBE8B,
    0xFFFEE692,
    0xFFFEA6C9,
    0xFFFF86E2,
    0xFFFE1B3D,
    0x00004C6A,
    0xFFFFD0C2,
    0xFFFF51DA,
    0x000086A1,
    0xFFFE46F5,
    0xFFFF9D1F,
    0xFFFF8957,
    0x000082CF,
    0xFFFEA6C3,
    0xFFFFE685,
    0x0000A9EE,
    0xFFFEE73A,
    0x0000522E,
    0x00004A5D,
    0xFFFF80F4,
    0x0000948C,
    0x000068A1,
    0xFFFEEEE8,
    0x00005ADE,
    0x0000A8F7,
    0xFFFF1756,
    0xFFFFDCD0,
    0xFFFF72C1,
    0x00003B51,
    0xFFFFC816,
    0x00005A90,
    0xFFFF601A,
    0xFFFF6640,
    0xFFFF849D,
    0x00008357,
    0x0000B5B9,
    0x00009D25,
    0x000090CC,
    0xFFFE8321,
    0xFFFE446D,
    0xFFFFA625,
    0xFFFEA367,
    0xFFFECDBA,
    0xFFFEEE3C,
    0xFFFED201,
    0x0000A2B9,
    0xFFFF3FCD,
    0xFFFEE02A,
    0xFFFEBD94,
    0x000097FC,
    0xFFFD5934,
    0x00009534,
    0xFFFF56B1,
    0x00007E6D,
    0xFFFD9E83,
    0xFFFF09FB,
    0x0000DBD1,
    0xFFFDFAE0,
    0x000080ED,
    0xFFFF91CF,
    0xFFFF1F36,
    0xFFFEB2EA,
    0xFFFEBDEE,
    0xFFFFDC31,
    0x00008ABD,
    0xFFFE7615,
    0xFFFF2871,
    0x000076E6,
    0xFFFEFBF1,
    0x0000ACAE,
    0xFFFE41A6,
    0xFFFE2AAE,
    0x0000660E,
    0x00005D88,
    0xFFFE15D7,
    0x0000BAE3,
    0xFFFF1844,
    0x00001DBC,
    0x00006D30,
    0x000093CE,
    0xFFFF7B62,
    0x0000A935,
    0x00009243,
    0x00007253,
    0x00007461,
    0x00002D1D,
    0x00002F37,
    0xFFFF8A09,
    0x00009D64,
    0x00002E3C,
    0x00008DFD,
    0x00008861,
    0x00001CBA,
    0xFFFF06E9,
    0xFFFF6AD6,
    0x00007B39,
    0x00003C5F,
    0x000065B6,
    0xFFFEF909,
    0x0000814B,
    0x000030ED,
    0x00007CDC,
    0x0000722B,
    0xFFFF35F3,
    0x0000666A,
    0xFFFEFA74,
    0xFFFEA7F2,
    0xFFFF1759,
    0xFFFF0F70,
    0xFFFF72DA,
    0x000093AF,
    0xFFFF1DD9,
    0x00006D9A,
    0x0000E60F,
    0x00008B9A,
    0x00007FA3,
    0xFFFE7FB9,
    0x000077CE,
    0xFFFEFD35,
    0x0000A915,
    0xFFFF004A,
    0xFFFF068D,
    0xFFFE8766,
    0xFFFF7DBB,
    0xFFFE2AFE,
    0x0000660F,
    0xFFFE93FB,
    0xFFFEBFE6,
    0xFFFEBD5F,
    0x0000057C,
    0xFFFF2009,
    0xFFFF1971,
    0x00007AF4,
    0x00006C07,
    0xFFFFAF3D
};
